#ifndef SINE_MODEL_H
#define SINE_MODEL_H


unsigned int sine_model_len = 3116;
unsigned char sine_model[] = {
 0x1c, 0x00, 0x00, 0x00, 0x54, 0x46, 0x4c, 0x33, 0x14, 0x00, 0x20, 0x00,
  0x1c, 0x00, 0x18, 0x00, 0x14, 0x00, 0x10, 0x00, 0x0c, 0x00, 0x00, 0x00,
  0x08, 0x00, 0x04, 0x00, 0x14, 0x00, 0x00, 0x00, 0x1c, 0x00, 0x00, 0x00,
  0x90, 0x00, 0x00, 0x00, 0xe8, 0x00, 0x00, 0x00, 0x04, 0x07, 0x00, 0x00,
  0x14, 0x07, 0x00, 0x00, 0xd8, 0x0b, 0x00, 0x00, 0x03, 0x00, 0x00, 0x00,
  0x01, 0x00, 0x00, 0x00, 0x10, 0x00, 0x00, 0x00, 0x00, 0x00, 0x0a, 0x00,
  0x10, 0x00, 0x0c, 0x00, 0x08, 0x00, 0x04, 0x00, 0x0a, 0x00, 0x00, 0x00,
  0x0c, 0x00, 0x00, 0x00, 0x1c, 0x00, 0x00, 0x00, 0x38, 0x00, 0x00, 0x00,
  0x0f, 0x00, 0x00, 0x00, 0x73, 0x65, 0x72, 0x76, 0x69, 0x6e, 0x67, 0x5f,
  0x64, 0x65, 0x66, 0x61, 0x75, 0x6c, 0x74, 0x00, 0x01, 0x00, 0x00, 0x00,
  0x04, 0x00, 0x00, 0x00, 0x98, 0xff, 0xff, 0xff, 0x09, 0x00, 0x00, 0x00,
  0x04, 0x00, 0x00, 0x00, 0x07, 0x00, 0x00, 0x00, 0x64, 0x65, 0x6e, 0x73,
  0x65, 0x5f, 0x32, 0x00, 0x01, 0x00, 0x00, 0x00, 0x04, 0x00, 0x00, 0x00,
  0xc6, 0xf9, 0xff, 0xff, 0x04, 0x00, 0x00, 0x00, 0x0b, 0x00, 0x00, 0x00,
  0x64, 0x65, 0x6e, 0x73, 0x65, 0x5f, 0x69, 0x6e, 0x70, 0x75, 0x74, 0x00,
  0x02, 0x00, 0x00, 0x00, 0x34, 0x00, 0x00, 0x00, 0x04, 0x00, 0x00, 0x00,
  0xdc, 0xff, 0xff, 0xff, 0x0c, 0x00, 0x00, 0x00, 0x04, 0x00, 0x00, 0x00,
  0x13, 0x00, 0x00, 0x00, 0x43, 0x4f, 0x4e, 0x56, 0x45, 0x52, 0x53, 0x49,
  0x4f, 0x4e, 0x5f, 0x4d, 0x45, 0x54, 0x41, 0x44, 0x41, 0x54, 0x41, 0x00,
  0x08, 0x00, 0x0c, 0x00, 0x08, 0x00, 0x04, 0x00, 0x08, 0x00, 0x00, 0x00,
  0x0b, 0x00, 0x00, 0x00, 0x04, 0x00, 0x00, 0x00, 0x13, 0x00, 0x00, 0x00,
  0x6d, 0x69, 0x6e, 0x5f, 0x72, 0x75, 0x6e, 0x74, 0x69, 0x6d, 0x65, 0x5f,
  0x76, 0x65, 0x72, 0x73, 0x69, 0x6f, 0x6e, 0x00, 0x0d, 0x00, 0x00, 0x00,
  0x18, 0x06, 0x00, 0x00, 0x10, 0x06, 0x00, 0x00, 0xc0, 0x05, 0x00, 0x00,
  0xa4, 0x05, 0x00, 0x00, 0x54, 0x05, 0x00, 0x00, 0x04, 0x05, 0x00, 0x00,
  0xf4, 0x00, 0x00, 0x00, 0xa4, 0x00, 0x00, 0x00, 0x9c, 0x00, 0x00, 0x00,
  0x94, 0x00, 0x00, 0x00, 0x8c, 0x00, 0x00, 0x00, 0x6c, 0x00, 0x00, 0x00,
  0x04, 0x00, 0x00, 0x00, 0x72, 0xfa, 0xff, 0xff, 0x04, 0x00, 0x00, 0x00,
  0x58, 0x00, 0x00, 0x00, 0x0c, 0x00, 0x00, 0x00, 0x08, 0x00, 0x0e, 0x00,
  0x08, 0x00, 0x04, 0x00, 0x08, 0x00, 0x00, 0x00, 0x10, 0x00, 0x00, 0x00,
  0x28, 0x00, 0x00, 0x00, 0x00, 0x00, 0x06, 0x00, 0x08, 0x00, 0x04, 0x00,
  0x06, 0x00, 0x00, 0x00, 0x04, 0x00, 0x00, 0x00, 0x01, 0x00, 0x00, 0x00,
  0xea, 0x03, 0x00, 0x00, 0x00, 0x00, 0x0a, 0x00, 0x10, 0x00, 0x0c, 0x00,
  0x08, 0x00, 0x04, 0x00, 0x0a, 0x00, 0x00, 0x00, 0x02, 0x00, 0x00, 0x00,
  0x02, 0x00, 0x00, 0x00, 0x04, 0x00, 0x00, 0x00, 0x05, 0x00, 0x00, 0x00,
  0x32, 0x2e, 0x39, 0x2e, 0x32, 0x00, 0x00, 0x00, 0xd6, 0xfa, 0xff, 0xff,
  0x04, 0x00, 0x00, 0x00, 0x10, 0x00, 0x00, 0x00, 0x31, 0x2e, 0x35, 0x2e,
  0x30, 0x00, 0x00, 0x00, 0x00, 0x00, 0x00, 0x00, 0x00, 0x00, 0x00, 0x00,
  0xf4, 0xf5, 0xff, 0xff, 0xf8, 0xf5, 0xff, 0xff, 0xfc, 0xf5, 0xff, 0xff,
  0xfe, 0xfa, 0xff, 0xff, 0x04, 0x00, 0x00, 0x00, 0x40, 0x00, 0x00, 0x00,
  0x52, 0x7a, 0xa8, 0x3f, 0xaf, 0xbc, 0x2e, 0xbf, 0x99, 0xf2, 0x0e, 0x3e,
  0x26, 0x45, 0x79, 0x3f, 0x61, 0xd0, 0xf9, 0x3e, 0xf8, 0xe5, 0xac, 0x3d,
  0x04, 0x3d, 0x04, 0xbf, 0x6e, 0x35, 0x76, 0xbe, 0x9f, 0x62, 0xc8, 0xbd,
  0xb0, 0x68, 0x68, 0x3f, 0xbd, 0x1e, 0xa6, 0x3e, 0x1c, 0xb9, 0x11, 0xbf,
  0x56, 0x7c, 0x20, 0x3e, 0x97, 0xa0, 0x43, 0xbf, 0x46, 0xb0, 0xad, 0x3f,
  0x40, 0x48, 0x91, 0x3f, 0x4a, 0xfb, 0xff, 0xff, 0x04, 0x00, 0x00, 0x00,
  0x00, 0x04, 0x00, 0x00, 0x08, 0x3c, 0xea, 0x3e, 0x7b, 0xfe, 0x9f, 0x3e,
  0x6b, 0xa4, 0x93, 0x3e, 0x27, 0x1a, 0x56, 0x3e, 0xbd, 0x57, 0x54, 0xbe,
  0xab, 0xb9, 0xc6, 0xbe, 0x46, 0x87, 0x58, 0x3e, 0x51, 0x1d, 0xd5, 0x3e,
  0x40, 0xfa, 0x2d, 0xbf, 0xf0, 0x33, 0xe2, 0xbe, 0x2a, 0x22, 0x14, 0x3e,
  0xe6, 0x8c, 0x84, 0x3c, 0x56, 0x1f, 0xaf, 0xbe, 0x8f, 0x70, 0xd5, 0x3e,
  0x07, 0x74, 0xaa, 0x3e, 0xae, 0x76, 0x22, 0x3d, 0xa5, 0xcb, 0xcf, 0x3c,
  0x8b, 0xe6, 0xd5, 0xbe, 0x15, 0x0b, 0xbd, 0xbe, 0x9b, 0xa8, 0x17, 0xbe,
  0x34, 0x05, 0x15, 0xbe, 0x98, 0x7f, 0x22, 0xbd, 0xfe, 0x52, 0x06, 0x3e,
  0x3e, 0x03, 0xf4, 0xbe, 0x83, 0x70, 0xb5, 0x3c, 0x78, 0x74, 0xe8, 0xbc,
  0xb0, 0x4e, 0x81, 0x3d, 0xb9, 0xf3, 0x19, 0x3f, 0x63, 0xf1, 0x24, 0x3f,
  0x7e, 0x3f, 0x57, 0xbe, 0x98, 0x08, 0x99, 0xbe, 0xb2, 0x11, 0x08, 0xbf,
  0x3b, 0x40, 0x2c, 0xbd, 0x97, 0xe2, 0xa9, 0xbe, 0xfb, 0xe8, 0x92, 0x3e,
  0xb3, 0xa9, 0x84, 0xbe, 0x78, 0x16, 0x08, 0x3d, 0x9c, 0xbe, 0xe9, 0xbe,
  0x84, 0x7a, 0xbd, 0x3d, 0x3f, 0x61, 0x51, 0x3d, 0x7e, 0xb9, 0x7a, 0x3e,
  0xb3, 0x5d, 0x9d, 0x3d, 0xef, 0x33, 0x84, 0xbe, 0x74, 0xf8, 0x3a, 0xbe,
  0x0a, 0x00, 0x75, 0x3e, 0xa4, 0x8b, 0xa7, 0xbe, 0x05, 0xff, 0xd2, 0xbe,
  0xff, 0x22, 0x78, 0xbe, 0xbc, 0x9c, 0xe7, 0xbe, 0xbf, 0x0f, 0xb7, 0xbe,
  0x06, 0x5a, 0x1f, 0x3e, 0xd9, 0xd6, 0x15, 0x3c, 0x63, 0x67, 0x43, 0xbe,
  0x04, 0x87, 0x2b, 0xbe, 0x90, 0x6e, 0x2a, 0xbd, 0xa4, 0x5f, 0xc9, 0xbe,
  0x7c, 0x89, 0x6a, 0x3e, 0x87, 0xf4, 0x31, 0xbd, 0xe2, 0x7b, 0x46, 0xbe,
  0xe5, 0x41, 0x88, 0x3e, 0x00, 0x22, 0x0f, 0x3f, 0x9e, 0xff, 0x18, 0x3e,
  0x82, 0xa9, 0x50, 0x3e, 0x72, 0x7a, 0x9c, 0x3e, 0x54, 0x72, 0xa4, 0xbe,
  0x00, 0x49, 0x93, 0xbe, 0xec, 0x10, 0x63, 0xbe, 0x3a, 0xa7, 0xb6, 0x3e,
  0x44, 0xda, 0x91, 0x3d, 0x40, 0xa5, 0x2b, 0xbc, 0x9d, 0x8a, 0x5b, 0xbe,
  0x8f, 0xa5, 0x09, 0x3e, 0x25, 0x19, 0x20, 0x3e, 0xaa, 0x09, 0x22, 0xbe,
  0x8c, 0x91, 0xb3, 0x3d, 0x66, 0x5c, 0xd6, 0xbe, 0x59, 0x3f, 0x3f, 0x3e,
  0x68, 0xe8, 0x21, 0xbe, 0x3c, 0x71, 0xb3, 0xbe, 0xa9, 0x4d, 0xbc, 0x3e,
  0x6c, 0x8d, 0xc0, 0x3d, 0xc4, 0x57, 0xc3, 0x3d, 0xf0, 0xa8, 0x7a, 0xbe,
  0xbe, 0x95, 0xd2, 0xbe, 0x4b, 0x7c, 0x8d, 0x3e, 0x42, 0xcf, 0x85, 0xbe,
  0x6b, 0x82, 0xb3, 0xbe, 0x38, 0xc1, 0x99, 0xbe, 0x1a, 0xf7, 0xc0, 0xbe,
  0x40, 0xee, 0x59, 0x3c, 0x06, 0x99, 0x66, 0x3e, 0x32, 0xb0, 0x91, 0xbe,
  0x08, 0xb9, 0x52, 0x3d, 0xb0, 0x87, 0xce, 0xbe, 0x61, 0xa7, 0xa4, 0x3e,
  0xca, 0xb2, 0x39, 0xbe, 0x6a, 0xf8, 0xca, 0x3e, 0x10, 0xd4, 0xb8, 0xbd,
  0xc4, 0xe7, 0xd6, 0x3d, 0x61, 0xbd, 0x11, 0x3e, 0x17, 0x3a, 0xca, 0xbe,
  0x76, 0x6e, 0x1a, 0x3e, 0xe7, 0x89, 0xda, 0x3e, 0x18, 0x8d, 0x58, 0x3e,
  0x09, 0xdd, 0x79, 0xbe, 0xec, 0x9c, 0xba, 0xbd, 0xbf, 0x39, 0xa7, 0x3e,
  0x15, 0xc5, 0xac, 0xbe, 0x4b, 0x81, 0xa6, 0x3e, 0x6a, 0xb4, 0x2c, 0x3e,
  0x18, 0x08, 0x23, 0xbe, 0xfd, 0x07, 0xfa, 0x3e, 0x1e, 0xec, 0xcc, 0x3e,
  0x34, 0x83, 0xe1, 0xbd, 0x6e, 0xac, 0x35, 0x3e, 0xa6, 0xb8, 0x17, 0x3c,
  0x70, 0x74, 0xce, 0xbc, 0x6b, 0x20, 0x6b, 0xbe, 0x2e, 0x65, 0x4b, 0xbe,
  0x82, 0xc6, 0x8e, 0x3e, 0x00, 0xc7, 0xc8, 0x3d, 0xef, 0xa2, 0x0e, 0xbe,
  0x82, 0x8f, 0x43, 0x3e, 0xae, 0x5a, 0x83, 0x3e, 0xb0, 0xe4, 0x3c, 0xbe,
  0x36, 0x15, 0x2b, 0xbe, 0x64, 0x4c, 0xea, 0x3d, 0xe7, 0x14, 0xa9, 0x3d,
  0xa5, 0x91, 0xac, 0x3d, 0x0f, 0x2b, 0xa1, 0x3e, 0x76, 0x3f, 0x47, 0x3e,
  0x20, 0x9d, 0x35, 0xbd, 0x30, 0xd8, 0x95, 0x3c, 0x76, 0xf8, 0xce, 0x3e,
  0xf3, 0x31, 0x9a, 0x3e, 0x52, 0x76, 0x1c, 0x3e, 0x2a, 0xf4, 0x80, 0x3e,
  0x86, 0x8b, 0x6e, 0x3e, 0xd2, 0xe4, 0xbd, 0x3e, 0x42, 0xbb, 0x7d, 0x3e,
  0x5e, 0x00, 0xea, 0x3e, 0x21, 0x66, 0x9e, 0xbe, 0xaa, 0x04, 0xc4, 0xbe,
  0xdf, 0x0f, 0x9a, 0x3e, 0xa4, 0x5f, 0x13, 0xbf, 0xec, 0x44, 0xce, 0x3d,
  0x58, 0x2f, 0xb5, 0xbd, 0xc0, 0x62, 0xfa, 0xbe, 0xa6, 0xd4, 0x21, 0xbe,
  0xec, 0x6b, 0x81, 0x3e, 0xa6, 0xe7, 0x14, 0xbe, 0x3d, 0x5d, 0x27, 0xbc,
  0x8d, 0x49, 0x80, 0x3e, 0x60, 0x04, 0x73, 0x3e, 0x56, 0x9a, 0xa6, 0x3e,
  0x14, 0xa1, 0x17, 0x3f, 0x6a, 0xf6, 0xe3, 0x3e, 0x1f, 0x32, 0xc5, 0xbe,
  0x2a, 0xa6, 0x54, 0x3e, 0x8a, 0x1d, 0xab, 0xbe, 0xb0, 0xe8, 0xe1, 0x3d,
  0x4e, 0x79, 0xc4, 0xbe, 0x51, 0xdf, 0xb6, 0xbe, 0xd6, 0x2c, 0xc9, 0x3e,
  0x6d, 0x0c, 0x94, 0x3e, 0x9a, 0x4e, 0x8f, 0xbd, 0x54, 0x22, 0xc2, 0xbe,
  0xe5, 0x03, 0x98, 0xbe, 0x54, 0x05, 0x6b, 0xbe, 0xbe, 0xc9, 0x0d, 0xbe,
  0xa5, 0x0f, 0x36, 0xbc, 0x39, 0xbd, 0x16, 0x3e, 0x6e, 0x33, 0x85, 0x3e,
  0xe3, 0x4a, 0xb4, 0x3c, 0xb1, 0x56, 0xb9, 0x3e, 0x88, 0xc5, 0xb3, 0xbe,
  0x20, 0xbf, 0xe4, 0xbd, 0xc0, 0xea, 0x90, 0xbb, 0xae, 0x76, 0x5c, 0x3e,
  0x03, 0x5d, 0x2d, 0xbf, 0xec, 0x50, 0x39, 0xbe, 0x33, 0x87, 0xc7, 0x3d,
  0x5e, 0xaf, 0x4e, 0x3e, 0x6e, 0x0f, 0xed, 0xbd, 0xf2, 0x48, 0x07, 0x3f,
  0x32, 0x37, 0x94, 0x3e, 0xa5, 0x25, 0xee, 0x3d, 0xf0, 0x1f, 0x26, 0x3d,
  0xae, 0x9b, 0xd1, 0x3e, 0x63, 0x58, 0xbf, 0x3e, 0x8c, 0xe9, 0x81, 0xbd,
  0xf1, 0xea, 0x20, 0xbf, 0xaf, 0x3f, 0x71, 0x3e, 0xba, 0x9c, 0x94, 0xbe,
  0x98, 0x72, 0x46, 0xbe, 0x31, 0x5c, 0xa8, 0xbd, 0xd8, 0x51, 0x45, 0xbd,
  0x2f, 0xb0, 0x95, 0x3e, 0x77, 0x79, 0xc0, 0x3e, 0xf3, 0x69, 0x32, 0xbe,
  0x5a, 0x21, 0x80, 0x3e, 0x10, 0x68, 0xea, 0xbc, 0xcd, 0xe8, 0xf5, 0x3d,
  0x03, 0x67, 0x9e, 0x3e, 0x77, 0x39, 0x09, 0x3e, 0xcb, 0xa0, 0x5f, 0x3e,
  0x81, 0xbd, 0x92, 0x3e, 0x5e, 0x0b, 0x99, 0x3d, 0x60, 0x30, 0x0a, 0xbe,
  0x00, 0x76, 0xa2, 0x3b, 0xbf, 0x52, 0x87, 0x3e, 0xe1, 0x63, 0x5e, 0xbe,
  0x9b, 0x26, 0xd7, 0x3e, 0xd4, 0xa6, 0xd1, 0x3e, 0xea, 0x4c, 0x1a, 0x3e,
  0x90, 0x2e, 0x05, 0x3c, 0xe1, 0x47, 0x31, 0x3f, 0x0a, 0xfb, 0x59, 0xbe,
  0x58, 0x85, 0x18, 0xbf, 0xb6, 0xbf, 0x83, 0x3a, 0x8e, 0x5e, 0xfa, 0x3e,
  0x08, 0x86, 0x39, 0xbd, 0x7c, 0x7b, 0x94, 0xbd, 0x8b, 0x25, 0x09, 0xbf,
  0xd3, 0xa1, 0xf1, 0x3e, 0x01, 0x14, 0x88, 0x3e, 0x14, 0xf9, 0xb3, 0xbe,
  0x96, 0xf4, 0xba, 0xbe, 0xc4, 0x38, 0xe0, 0xbd, 0x2d, 0x03, 0xc2, 0x3d,
  0xe0, 0x20, 0xee, 0xbd, 0x75, 0x92, 0xff, 0x3e, 0xfc, 0x85, 0xea, 0xbe,
  0x4b, 0x78, 0xb5, 0x3b, 0xb7, 0xf7, 0x52, 0xbd, 0xa0, 0xe8, 0x6d, 0xbe,
  0xbb, 0x6d, 0x14, 0xbf, 0x78, 0xb1, 0xd7, 0x3e, 0x00, 0x34, 0xe6, 0xbd,
  0xcc, 0xff, 0x0a, 0x3e, 0x88, 0x32, 0x02, 0x3f, 0x12, 0xd4, 0x46, 0x3e,
  0xed, 0x99, 0x85, 0x3e, 0x88, 0xc3, 0x14, 0x3d, 0xf6, 0x90, 0x25, 0xbe,
  0xa2, 0x49, 0xd4, 0x3d, 0xce, 0x67, 0x27, 0xbe, 0x1e, 0x79, 0x74, 0xbe,
  0xa8, 0xbb, 0x46, 0xbf, 0x95, 0xba, 0x67, 0x3c, 0x1e, 0x7e, 0x9a, 0x3d,
  0x51, 0xd3, 0x96, 0xbe, 0x26, 0xdb, 0xdf, 0xbe, 0x08, 0x20, 0x90, 0x3e,
  0x40, 0x0d, 0x62, 0xbe, 0xc3, 0xeb, 0xdd, 0x3d, 0x56, 0xff, 0xff, 0xff,
  0x04, 0x00, 0x00, 0x00, 0x40, 0x00, 0x00, 0x00, 0x07, 0xf5, 0xdc, 0x3e,
  0x4c, 0xff, 0xd0, 0xbe, 0x60, 0xa6, 0x8c, 0xbd, 0xc7, 0x24, 0xf6, 0x3e,
  0x44, 0x64, 0xc9, 0xbd, 0x8f, 0x52, 0x1f, 0x3e, 0x04, 0x89, 0xfc, 0xbe,
  0x2b, 0x1f, 0xc8, 0x3e, 0xed, 0xec, 0x54, 0xbd, 0xd3, 0x6d, 0x91, 0x3e,
  0x31, 0x65, 0xbd, 0x3e, 0x99, 0x2c, 0xb7, 0x3c, 0x12, 0xde, 0x08, 0x3d,
  0x70, 0x31, 0xb1, 0xb9, 0xce, 0x2f, 0x89, 0xbe, 0xfb, 0xaf, 0xd7, 0x3e,
  0xa2, 0xff, 0xff, 0xff, 0x04, 0x00, 0x00, 0x00, 0x40, 0x00, 0x00, 0x00,
  0x3c, 0x0c, 0xaf, 0xbe, 0x49, 0xa2, 0x8f, 0x3e, 0x65, 0x75, 0xa5, 0xbd,
  0x62, 0x9e, 0x9d, 0x3e, 0xdb, 0xc3, 0xa3, 0x3d, 0x00, 0x00, 0x00, 0x00,
  0x6c, 0x7d, 0x21, 0xbe, 0xf7, 0x4b, 0x07, 0xbe, 0xb2, 0xf7, 0xc0, 0xbd,
  0xc2, 0x97, 0xa5, 0x3e, 0x8f, 0xc1, 0x90, 0xbc, 0xd9, 0xb6, 0x67, 0x3e,
  0x5b, 0xc6, 0x9c, 0x3d, 0x2e, 0x3f, 0x89, 0x3e, 0x89, 0xd8, 0x9d, 0xbe,
  0xf6, 0x74, 0xa9, 0xbe, 0xee, 0xff, 0xff, 0xff, 0x04, 0x00, 0x00, 0x00,
  0x04, 0x00, 0x00, 0x00, 0xb8, 0x95, 0xa8, 0x3d, 0x00, 0x00, 0x06, 0x00,
  0x08, 0x00, 0x04, 0x00, 0x06, 0x00, 0x00, 0x00, 0x04, 0x00, 0x00, 0x00,
  0x40, 0x00, 0x00, 0x00, 0x69, 0x7b, 0xfa, 0xbe, 0x00, 0x00, 0x00, 0x00,
  0x00, 0x00, 0x00, 0x00, 0x11, 0x86, 0x29, 0xbd, 0x00, 0x00, 0x00, 0x00,
  0x81, 0x1d, 0xab, 0x3e, 0x00, 0x00, 0x00, 0x00, 0x5e, 0x35, 0xfe, 0xbe,
  0x04, 0xeb, 0x12, 0x3f, 0x64, 0x64, 0xea, 0x3e, 0xe2, 0xbf, 0x48, 0xbb,
  0xe1, 0xf5, 0xf2, 0x3e, 0x3e, 0x32, 0x13, 0x3f, 0x8f, 0x36, 0xc2, 0xbb,
  0x00, 0x00, 0x00, 0x00, 0x66, 0x5b, 0x80, 0xbc, 0x54, 0xfb, 0xff, 0xff,
  0x58, 0xfb, 0xff, 0xff, 0x0f, 0x00, 0x00, 0x00, 0x4d, 0x4c, 0x49, 0x52,
  0x20, 0x43, 0x6f, 0x6e, 0x76, 0x65, 0x72, 0x74, 0x65, 0x64, 0x2e, 0x00,
  0x01, 0x00, 0x00, 0x00, 0x14, 0x00, 0x00, 0x00, 0x00, 0x00, 0x0e, 0x00,
  0x18, 0x00, 0x14, 0x00, 0x10, 0x00, 0x0c, 0x00, 0x08, 0x00, 0x04, 0x00,
  0x0e, 0x00, 0x00, 0x00, 0x14, 0x00, 0x00, 0x00, 0x1c, 0x00, 0x00, 0x00,
  0xd8, 0x00, 0x00, 0x00, 0xdc, 0x00, 0x00, 0x00, 0xe0, 0x00, 0x00, 0x00,
  0x04, 0x00, 0x00, 0x00, 0x6d, 0x61, 0x69, 0x6e, 0x00, 0x00, 0x00, 0x00,
  0x03, 0x00, 0x00, 0x00, 0x80, 0x00, 0x00, 0x00, 0x38, 0x00, 0x00, 0x00,
  0x04, 0x00, 0x00, 0x00, 0x9a, 0xff, 0xff, 0xff, 0x10, 0x00, 0x00, 0x00,
  0x00, 0x00, 0x00, 0x08, 0x0c, 0x00, 0x00, 0x00, 0x10, 0x00, 0x00, 0x00,
  0xd0, 0xfb, 0xff, 0xff, 0x01, 0x00, 0x00, 0x00, 0x09, 0x00, 0x00, 0x00,
  0x03, 0x00, 0x00, 0x00, 0x08, 0x00, 0x00, 0x00, 0x06, 0x00, 0x00, 0x00,
  0x02, 0x00, 0x00, 0x00, 0xca, 0xff, 0xff, 0xff, 0x10, 0x00, 0x00, 0x00,
  0x00, 0x00, 0x00, 0x08, 0x10, 0x00, 0x00, 0x00, 0x14, 0x00, 0x00, 0x00,
  0xba, 0xff, 0xff, 0xff, 0x00, 0x00, 0x00, 0x01, 0x01, 0x00, 0x00, 0x00,
  0x08, 0x00, 0x00, 0x00, 0x03, 0x00, 0x00, 0x00, 0x07, 0x00, 0x00, 0x00,
  0x05, 0x00, 0x00, 0x00, 0x03, 0x00, 0x00, 0x00, 0x00, 0x00, 0x0e, 0x00,
  0x16, 0x00, 0x00, 0x00, 0x10, 0x00, 0x0c, 0x00, 0x0b, 0x00, 0x04, 0x00,
  0x0e, 0x00, 0x00, 0x00, 0x18, 0x00, 0x00, 0x00, 0x00, 0x00, 0x00, 0x08,
  0x18, 0x00, 0x00, 0x00, 0x1c, 0x00, 0x00, 0x00, 0x00, 0x00, 0x06, 0x00,
  0x08, 0x00, 0x07, 0x00, 0x06, 0x00, 0x00, 0x00, 0x00, 0x00, 0x00, 0x01,
  0x01, 0x00, 0x00, 0x00, 0x07, 0x00, 0x00, 0x00, 0x03, 0x00, 0x00, 0x00,
  0x00, 0x00, 0x00, 0x00, 0x04, 0x00, 0x00, 0x00, 0x01, 0x00, 0x00, 0x00,
  0x01, 0x00, 0x00, 0x00, 0x09, 0x00, 0x00, 0x00, 0x01, 0x00, 0x00, 0x00,
  0x00, 0x00, 0x00, 0x00, 0x0a, 0x00, 0x00, 0x00, 0x5c, 0x03, 0x00, 0x00,
  0xf8, 0x02, 0x00, 0x00, 0x94, 0x02, 0x00, 0x00, 0x40, 0x02, 0x00, 0x00,
  0xfc, 0x01, 0x00, 0x00, 0xb4, 0x01, 0x00, 0x00, 0x6c, 0x01, 0x00, 0x00,
  0xe8, 0x00, 0x00, 0x00, 0x5c, 0x00, 0x00, 0x00, 0x04, 0x00, 0x00, 0x00,
  0xe0, 0xfc, 0xff, 0xff, 0x14, 0x00, 0x00, 0x00, 0x1c, 0x00, 0x00, 0x00,
  0x1c, 0x00, 0x00, 0x00, 0x0a, 0x00, 0x00, 0x00, 0x34, 0x00, 0x00, 0x00,
  0x02, 0x00, 0x00, 0x00, 0xff, 0xff, 0xff, 0xff, 0x01, 0x00, 0x00, 0x00,
  0xcc, 0xfc, 0xff, 0xff, 0x19, 0x00, 0x00, 0x00, 0x53, 0x74, 0x61, 0x74,
  0x65, 0x66, 0x75, 0x6c, 0x50, 0x61, 0x72, 0x74, 0x69, 0x74, 0x69, 0x6f,
  0x6e, 0x65, 0x64, 0x43, 0x61, 0x6c, 0x6c, 0x3a, 0x30, 0x00, 0x00, 0x00,
  0x02, 0x00, 0x00, 0x00, 0x01, 0x00, 0x00, 0x00, 0x01, 0x00, 0x00, 0x00,
  0x34, 0xfd, 0xff, 0xff, 0x14, 0x00, 0x00, 0x00, 0x1c, 0x00, 0x00, 0x00,
  0x1c, 0x00, 0x00, 0x00, 0x09, 0x00, 0x00, 0x00, 0x68, 0x00, 0x00, 0x00,
  0x02, 0x00, 0x00, 0x00, 0xff, 0xff, 0xff, 0xff, 0x10, 0x00, 0x00, 0x00,
  0x20, 0xfd, 0xff, 0xff, 0x4c, 0x00, 0x00, 0x00, 0x73, 0x65, 0x71, 0x75,
  0x65, 0x6e, 0x74, 0x69, 0x61, 0x6c, 0x2f, 0x64, 0x65, 0x6e, 0x73, 0x65,
  0x5f, 0x31, 0x2f, 0x4d, 0x61, 0x74, 0x4d, 0x75, 0x6c, 0x3b, 0x73, 0x65,
  0x71, 0x75, 0x65, 0x6e, 0x74, 0x69, 0x61, 0x6c, 0x2f, 0x64, 0x65, 0x6e,
  0x73, 0x65, 0x5f, 0x31, 0x2f, 0x52, 0x65, 0x6c, 0x75, 0x3b, 0x73, 0x65,
  0x71, 0x75, 0x65, 0x6e, 0x74, 0x69, 0x61, 0x6c, 0x2f, 0x64, 0x65, 0x6e,
  0x73, 0x65, 0x5f, 0x31, 0x2f, 0x42, 0x69, 0x61, 0x73, 0x41, 0x64, 0x64,
  0x00, 0x00, 0x00, 0x00, 0x02, 0x00, 0x00, 0x00, 0x01, 0x00, 0x00, 0x00,
  0x10, 0x00, 0x00, 0x00, 0xbc, 0xfd, 0xff, 0xff, 0x14, 0x00, 0x00, 0x00,
  0x1c, 0x00, 0x00, 0x00, 0x1c, 0x00, 0x00, 0x00, 0x08, 0x00, 0x00, 0x00,
  0x60, 0x00, 0x00, 0x00, 0x02, 0x00, 0x00, 0x00, 0xff, 0xff, 0xff, 0xff,
  0x10, 0x00, 0x00, 0x00, 0xa8, 0xfd, 0xff, 0xff, 0x46, 0x00, 0x00, 0x00,
  0x73, 0x65, 0x71, 0x75, 0x65, 0x6e, 0x74, 0x69, 0x61, 0x6c, 0x2f, 0x64,
  0x65, 0x6e, 0x73, 0x65, 0x2f, 0x4d, 0x61, 0x74, 0x4d, 0x75, 0x6c, 0x3b,
  0x73, 0x65, 0x71, 0x75, 0x65, 0x6e, 0x74, 0x69, 0x61, 0x6c, 0x2f, 0x64,
  0x65, 0x6e, 0x73, 0x65, 0x2f, 0x52, 0x65, 0x6c, 0x75, 0x3b, 0x73, 0x65,
  0x71, 0x75, 0x65, 0x6e, 0x74, 0x69, 0x61, 0x6c, 0x2f, 0x64, 0x65, 0x6e,
  0x73, 0x65, 0x2f, 0x42, 0x69, 0x61, 0x73, 0x41, 0x64, 0x64, 0x00, 0x00,
  0x02, 0x00, 0x00, 0x00, 0x01, 0x00, 0x00, 0x00, 0x10, 0x00, 0x00, 0x00,
  0x96, 0xfe, 0xff, 0xff, 0x10, 0x00, 0x00, 0x00, 0x10, 0x00, 0x00, 0x00,
  0x07, 0x00, 0x00, 0x00, 0x28, 0x00, 0x00, 0x00, 0x18, 0xfe, 0xff, 0xff,
  0x19, 0x00, 0x00, 0x00, 0x73, 0x65, 0x71, 0x75, 0x65, 0x6e, 0x74, 0x69,
  0x61, 0x6c, 0x2f, 0x64, 0x65, 0x6e, 0x73, 0x65, 0x5f, 0x32, 0x2f, 0x4d,
  0x61, 0x74, 0x4d, 0x75, 0x6c, 0x00, 0x00, 0x00, 0x02, 0x00, 0x00, 0x00,
  0x01, 0x00, 0x00, 0x00, 0x10, 0x00, 0x00, 0x00, 0xda, 0xfe, 0xff, 0xff,
  0x10, 0x00, 0x00, 0x00, 0x10, 0x00, 0x00, 0x00, 0x06, 0x00, 0x00, 0x00,
  0x28, 0x00, 0x00, 0x00, 0x5c, 0xfe, 0xff, 0xff, 0x19, 0x00, 0x00, 0x00,
  0x73, 0x65, 0x71, 0x75, 0x65, 0x6e, 0x74, 0x69, 0x61, 0x6c, 0x2f, 0x64,
  0x65, 0x6e, 0x73, 0x65, 0x5f, 0x31, 0x2f, 0x4d, 0x61, 0x74, 0x4d, 0x75,
  0x6c, 0x00, 0x00, 0x00, 0x02, 0x00, 0x00, 0x00, 0x10, 0x00, 0x00, 0x00,
  0x10, 0x00, 0x00, 0x00, 0x1e, 0xff, 0xff, 0xff, 0x10, 0x00, 0x00, 0x00,
  0x10, 0x00, 0x00, 0x00, 0x05, 0x00, 0x00, 0x00, 0x24, 0x00, 0x00, 0x00,
  0xa0, 0xfe, 0xff, 0xff, 0x17, 0x00, 0x00, 0x00, 0x73, 0x65, 0x71, 0x75,
  0x65, 0x6e, 0x74, 0x69, 0x61, 0x6c, 0x2f, 0x64, 0x65, 0x6e, 0x73, 0x65,
  0x2f, 0x4d, 0x61, 0x74, 0x4d, 0x75, 0x6c, 0x00, 0x02, 0x00, 0x00, 0x00,
  0x10, 0x00, 0x00, 0x00, 0x01, 0x00, 0x00, 0x00, 0x5e, 0xff, 0xff, 0xff,
  0x10, 0x00, 0x00, 0x00, 0x10, 0x00, 0x00, 0x00, 0x04, 0x00, 0x00, 0x00,
  0x38, 0x00, 0x00, 0x00, 0xe0, 0xfe, 0xff, 0xff, 0x29, 0x00, 0x00, 0x00,
  0x73, 0x65, 0x71, 0x75, 0x65, 0x6e, 0x74, 0x69, 0x61, 0x6c, 0x2f, 0x64,
  0x65, 0x6e, 0x73, 0x65, 0x5f, 0x31, 0x2f, 0x42, 0x69, 0x61, 0x73, 0x41,
  0x64, 0x64, 0x2f, 0x52, 0x65, 0x61, 0x64, 0x56, 0x61, 0x72, 0x69, 0x61,
  0x62, 0x6c, 0x65, 0x4f, 0x70, 0x00, 0x00, 0x00, 0x01, 0x00, 0x00, 0x00,
  0x10, 0x00, 0x00, 0x00, 0xae, 0xff, 0xff, 0xff, 0x10, 0x00, 0x00, 0x00,
  0x10, 0x00, 0x00, 0x00, 0x03, 0x00, 0x00, 0x00, 0x38, 0x00, 0x00, 0x00,
  0x30, 0xff, 0xff, 0xff, 0x29, 0x00, 0x00, 0x00, 0x73, 0x65, 0x71, 0x75,
  0x65, 0x6e, 0x74, 0x69, 0x61, 0x6c, 0x2f, 0x64, 0x65, 0x6e, 0x73, 0x65,
  0x5f, 0x32, 0x2f, 0x42, 0x69, 0x61, 0x73, 0x41, 0x64, 0x64, 0x2f, 0x52,
  0x65, 0x61, 0x64, 0x56, 0x61, 0x72, 0x69, 0x61, 0x62, 0x6c, 0x65, 0x4f,
  0x70, 0x00, 0x00, 0x00, 0x01, 0x00, 0x00, 0x00, 0x01, 0x00, 0x00, 0x00,
  0x00, 0x00, 0x0e, 0x00, 0x14, 0x00, 0x10, 0x00, 0x00, 0x00, 0x0c, 0x00,
  0x08, 0x00, 0x04, 0x00, 0x0e, 0x00, 0x00, 0x00, 0x10, 0x00, 0x00, 0x00,
  0x10, 0x00, 0x00, 0x00, 0x02, 0x00, 0x00, 0x00, 0x34, 0x00, 0x00, 0x00,
  0x90, 0xff, 0xff, 0xff, 0x27, 0x00, 0x00, 0x00, 0x73, 0x65, 0x71, 0x75,
  0x65, 0x6e, 0x74, 0x69, 0x61, 0x6c, 0x2f, 0x64, 0x65, 0x6e, 0x73, 0x65,
  0x2f, 0x42, 0x69, 0x61, 0x73, 0x41, 0x64, 0x64, 0x2f, 0x52, 0x65, 0x61,
  0x64, 0x56, 0x61, 0x72, 0x69, 0x61, 0x62, 0x6c, 0x65, 0x4f, 0x70, 0x00,
  0x01, 0x00, 0x00, 0x00, 0x10, 0x00, 0x00, 0x00, 0x14, 0x00, 0x18, 0x00,
  0x14, 0x00, 0x00, 0x00, 0x10, 0x00, 0x0c, 0x00, 0x08, 0x00, 0x00, 0x00,
  0x00, 0x00, 0x04, 0x00, 0x14, 0x00, 0x00, 0x00, 0x14, 0x00, 0x00, 0x00,
  0x20, 0x00, 0x00, 0x00, 0x20, 0x00, 0x00, 0x00, 0x01, 0x00, 0x00, 0x00,
  0x3c, 0x00, 0x00, 0x00, 0x02, 0x00, 0x00, 0x00, 0xff, 0xff, 0xff, 0xff,
  0x01, 0x00, 0x00, 0x00, 0x04, 0x00, 0x04, 0x00, 0x04, 0x00, 0x00, 0x00,
  0x1d, 0x00, 0x00, 0x00, 0x73, 0x65, 0x72, 0x76, 0x69, 0x6e, 0x67, 0x5f,
  0x64, 0x65, 0x66, 0x61, 0x75, 0x6c, 0x74, 0x5f, 0x64, 0x65, 0x6e, 0x73,
  0x65, 0x5f, 0x69, 0x6e, 0x70, 0x75, 0x74, 0x3a, 0x30, 0x00, 0x00, 0x00,
  0x02, 0x00, 0x00, 0x00, 0x01, 0x00, 0x00, 0x00, 0x01, 0x00, 0x00, 0x00,
  0x01, 0x00, 0x00, 0x00, 0x10, 0x00, 0x00, 0x00, 0x0c, 0x00, 0x0c, 0x00,
  0x0b, 0x00, 0x00, 0x00, 0x00, 0x00, 0x04, 0x00, 0x0c, 0x00, 0x00, 0x00,
  0x09, 0x00, 0x00, 0x00, 0x00, 0x00, 0x00, 0x09
};

#endif //SINE_MODEL_H